{"vocab": ["\n", " ", "!", "\"", "$", "&", "'", "(", ")", "*", "+", ",", "-", ".", "/", "0", "1", "2", "3", "4", "5", "6", "7", "8", "9", ":", ";", "</w>", ">", "?", "A", "B", "C", "D", "E", "F", "G", "H", "I", "J", "K", "L", "M", "N", "O", "P", "Q", "R", "S", "T", "U", "V", "W", "X", "Y", "Z", "[", "]", "`", "a", "b", "c", "d", "e", "f", "g", "h", "i", "j", "k", "l", "m", "n", "o", "p", "q", "r", "s", "t", "u", "v", "w", "x", "y", "z", "\u00a0", "\u00a1", "\u00a6", "\u00a8", "\u00a9", "\u00aa", "\u00b1", "\u00b2", "\u00b4", "\u00c2", "\u00c3", "\u00d1", "\u00e2", "\u00ee", "\u0153", "\u02dc", "\u2013", "\u201c", "\u201d", "\u2039", "\u20ac", "\u2122", " </w>", "e</w>", "d</w>", ".</w>", "th", "y</w>", "t</w>", "s</w>", "an", "er", "ed</w>", "o</w>", "n</w>", "and</w>", ",</w>", "the</w>", "he</w>", "a</w>", "ou", "wa", "to</w>", "in", "er</w>", "ar", "g</w>", "\"</w>", "m</w>", "was</w>", "\n</w>", "\n\n</w>", "he", "l</w>", "ha", "sa", "or", "il", "ing</w>", "en", "it</w>", "k</w>", "li", "lo", "the", "w</w>", "is</w>", "re", "on</w>", "me</w>", "st", "ay</w>", "om</w>", "at</w>", "The", "ir", "She</w>", "her</w>", "He</w>", "id</w>", "in</w>", "They</w>", "al", "'</w>", "pl", "ri", "ere</w>", "f</w>", "to", "an</w>", "th</w>", "The</w>", "wi", "said</w>", "ti", "p</w>", "ac", "ily</w>", "!</w>", "no", "es</w>", "ked</w>", "ou</w>", "ut</w>", "h</w>", "tt", "le</w>", "she</w>", "el", "ted</w>", "pp", "on", "with</w>", "Lily</w>", "his</w>", "On", "ve</w>", "ld</w>", "ver", "en</w>", "be", "day</w>", "for", "ke</w>", "of</w>", "ce</w>", "that</w>", "my</w>", "ly</w>", "ho", "so</w>", "id", "ne", "as", "om", "had</w>", "they</w>", "you</w>", "fu", "ma", "ro", "very</w>", "bo", "le", "gh", "nd</w>", "I</w>", "happ", "se</w>", "wan", "hi", "for</w>", "do", "bi", "It</w>", "et</w>", "car", "ttle</w>", "ds</w>", "time</w>", "all</w>", "little</w>", "ca", "there</w>", "ra", "ound</w>", "ould</w>", "ur", "happy</w>", "mom</w>", "ys</w>", "sm", " \n\n</w>", "ent</w>", "sh", "not</w>", "fri", "ther</w>", "st</w>", "big</w>", "saw</w>", "un", "oo", "frien", "am", "are</w>", "One</w>", "ir</w>", "loo", "Ti", "but</w>", "ved</w>", "se", "were</w>", "play</w>", "Once</w>", "up", "ry</w>", "ack</w>", "ic", "ght</w>", "hat</w>", "ts</w>", "ad</w>", "be</w>", "out</w>", "ec", "uc", "one</w>", "gir", "wanted</w>", "sp", "upon</w>", "?</w>", "girl</w>", "co", "him</w>", "ga", "them</w>", "so", "ay", "up</w>", "their</w>", "smil", "ver</w>", "hel", "mmy</w>", "Tom</w>", "ex", "wh", "la", "ta", "have</w>", "hen</w>", "ar</w>", "Ben</w>", "ter</w>", "But</w>", "de</w>", "went</w>", "go</w>", "dd", "thing</w>", "ful</w>", "ore</w>", "ide</w>", "is", "new</w>", "x</w>", "ill</w>", "friends</w>", "can</w>", "our", "par", "fel", "gs</w>", "te</w>", "ge", "play", "go", "way</w>", "ind</w>", "amed</w>", "rom</w>", "side</w>", "ome", "You</w>", "Timmy</w>", "back</w>", "smiled</w>", "too</w>", "named</w>", "loved</w>", "some", "star", "asked</w>", "ommy</w>", "ks</w>", "like</w>", "could</w>", "wn</w>", "fun</w>", "felt</w>", "am</w>", "king</w>", "looked</w>", "around</w>", "ee", "ci", "ch</w>", "or</w>", "boy</w>", "bir", "ard</w>", "wor", "ab", "bu", "al</w>", "\u20ac</w>", "\u00e2</w>", "other</w>", "led</w>", "po", "thin", "ch", "help</w>", "would</w>", "see</w>", "ood</w>", "me", "our</w>", "what</w>", "make</w>", "some</w>", "did</w>", "tre", "says</w>", "gether</w>", "started</w>", "ru", "ju", "away</w>", "wal", "ran</w>", "ok</w>", "came</w>", "something</w>", "together</w>", "rou", "do</w>", "want</w>", "made</w>", "hu", "ice</w>", "park</w>", "scar", "nn", "ure</w>", "sho", "exci", "sad</w>", "from</w>", "Tim</w>", "home</w>", "got</w>", "now</w>", "aga", "gg", "found</w>", "di", "again</w>", "ried</w>", "dec", "qu", "then</w>", "man</w>", "pped</w>", "low", "put</w>", "when</w>", "sed</w>", "more</w>", "ge</w>", "Mom</w>", "bird</w>", "Su", "rea", "who</w>", "gh</w>", "playing</w>", "ss</w>", "ally</w>", "ers</w>", "as</w>", "things</w>", "gr", "pic", "ach</w>", "mb", "liked</w>", "ld", "we</w>", "lon", "han", "pa", "ll</w>", "excited</w>", "decid", "si", "dy</w>", "pu", "decided</w>", "get</w>", "mp", "gi", "cou", "scared</w>", "friend</w>", "fe", "ous</w>", "ouse</w>", "clo", "down</w>", "Ma", "jo", "very", "Ann", "thou", "We</w>", "dog</w>", "bb", "Sar", "ways</w>", "te", "spec", "use</w>", "gre", "Anna</w>", "will</w>", "out", "find</w>", "su", "Sam</w>", "ace</w>", "your</w>", "did", "always</w>", "about</w>", "old</w>", "took</w>", "Max</w>", "ned</w>", "uch</w>", "mommy</w>", "mo", "didn</w>", "tree</w>", "outside</w>", "de", "sor", "pe", "b</w>", "speci", "toys</w>", "lear", "good</w>", "ened</w>", "ke", "ugh", "ent", "pre", "sw", "Jo", "tter</w>", "fi", "thought</w>", "special</w>", "When</w>", "room</w>", "Mi", "take</w>", "any</w>", "knew</w>", "ldn</w>", "car</w>", "ki", "op", "ff", "dad</w>", "ang", "enly</w>", "ddenly</w>", "Her</w>", "toy</w>", "lu", "and", "never</w>", "mu", "ky</w>", "fa", "sorry</w>", "gged</w>", "ny</w>", "com", "how</w>", "dre", "ball</w>", "much</w>", "fter</w>", "than", "ol", "know</w>", "care", "end</w>", "So</w>", "house</w>", "ple</w>", "Jack</w>", "tr", "ered</w>", "into</w>", "na", "gave</w>", "look</w>", "bro", "ant</w>", "water</w>", "ven</w>", "this</w>", "ad", "prou", "ty</w>", "tried</w>", "inside</w>", "ting</w>", "tw", "if</w>", "expl", "sel", "ani", "told</w>", "heard</w>", "tch</w>", "Suddenly</w>", "box</w>", "each</w>", "couldn</w>", "che", "Mia</w>", "war", "come</w>", "Sara</w>", "by</w>", "over</w>", "played</w>", "cause</w>", "lou", "laugh", "proud</w>", "ck</w>", "Then</w>", "just</w>", "hugged</w>", "shed</w>", "cal", "str", "long</w>", "sto", "His</w>", "flow", "because</w>", "Let</w>", "many</w>", "uck</w>", "From</w>", "no</w>", "fin", "ying</w>", "fe</w>", "ow</w>", "kes</w>", "cu", "coo", "pr", "any", "every", "And</w>", "That</w>", "ard", "shin", "ile</w>", "unti", "au", "nice</w>", "ff</w>", "ving</w>", "until</w>", "ched</w>", "ong</w>", "we", "here</w>", "ast</w>", "col", "small</w>", "bear</w>", "right</w>", "rabb", "cre", "eep</w>", "ddy</w>", "better</w>", "ket</w>", "ft</w>", "ning</w>", "where</w>", "bra", "der", "learned</w>", "-</w>", "What</w>", "ish</w>", "Mommy</w>", "als</w>", "hur", "ell</w>", "low</w>", "gard", "ves</w>", "Yes</w>", "tur", "ni", "garden</w>", "ba", "best</w>", "pi", "sky</w>", "ls</w>", "careful</w>", "beau", "don</w>", "ped</w>", "its</w>", "red</w>", "love</w>", "vent", "laughed</w>", "cle", "ble</w>", "thanked</w>", "feel", "eat</w>", "ise</w>", "pri", "zed</w>", "self</w>", "still</w>", "say</w>", "off</w>", "sur", "sh</w>", "yes</w>", "tty</w>", "even</w>", "pt</w>", "loud</w>", "Can</w>", "beauti", "Joh", "beautiful</w>", "lew</w>", "list", "lots</w>", "sli", "ded</w>", "fam", "eel</w>", "kind</w>", "fly</w>", "mals</w>", "stor", "animals</w>", "ced</w>", "cat</w>", "Bo", "safe</w>", "Luc", "feel</w>", "mi", "both</w>", "est</w>", "ear", "ane</w>", "two</w>", "ople</w>", "lived</w>", "let</w>", "sun</w>", "walked</w>", "ss", "lea", "As</w>", "fir", "oun", "der</w>", "ate</w>", "ine</w>", "Than", "kay</w>", "ever</w>", "pot</w>", "ground</w>", "angry</w>", "les</w>", "ase</w>", "people</w>", "tu", "ma</w>", "try</w>", "kept</w>", "gu", "Lucy</w>", "called</w>", "brave</w>", "family</w>", "soon</w>", "every</w>", "surpri", "hurt</w>", "fore</w>", "wat", "No</w>", "flew</w>", "il</w>", "hard</w>", "fast</w>", "ide", "thre", "con", "After</w>", "illy</w>", "imp", "ster</w>", "bad</w>", "going</w>", "Da", "Thank</w>", "share</w>", "pe</w>", "John</w>", "per", "give</w>", "fish</w>", "dded</w>", "mon", "dra", "mor", "should</w>", "pretty</w>", "win", "explore</w>", "shiny</w>", "before</w>", "ic</w>", "opened</w>", "cli", "ach", "whi", "show", "noise</w>", "advent", "run", "ye</w>", "cks</w>", "also</w>", "run</w>", "door</w>", "lue</w>", "ste", "da", "lot</w>", "able</w>", "\u2122</w>", "feeling</w>", "keep</w>", "noti", "Every</w>", "hug</w>", "nex", "nodded</w>", "ner</w>", "br", "walking</w>", "has</w>", "climb", "Sue</w>", "Every", "idea</w>", "next</w>", "spo", "ce", "ark</w>", "clos", "kly</w>", "picked</w>", "ture</w>", "unny</w>", "while</w>", "ick</w>", "diff", "ey</w>", "looking</w>", "ass</w>", "need</w>", "jump", "won", "ling</w>", "Spot</w>", "memb", "being</w>", "dly</w>", "Bob</w>", "vo", "tting</w>", "show</w>", "smile</w>", "goo", "cha", "tou", "ea", "flowers</w>", "ink</w>", "pli", "tal", "stopped</w>", "gl", "enny</w>", "ort", "enjo", "clean</w>", "noticed</w>", "cra", "eyes</w>", "hands</w>", "squ", "sha", "color", "re</w>", "import", "rememb", "work</w>", "great</w>", "head</w>", "food</w>", "ely</w>", "rain</w>", "shou", "res</w>", "bye</w>", "Loo", "hand</w>", "repli", "ents</w>", "ummy</w>", "replied</w>", "important</w>", "read</w>", "Look</w>", "fol", "place</w>", "nee", "differ", "chil", "row</w>", "ama", "night</w>", "deli", "ons</w>", "slide</w>", "ple", "per</w>", "after</w>", "butt", "okay</w>", "everyone</w>", "ined</w>", "dbye</w>", "watched</w>", "Do</w>", "showed</w>", "truck</w>", "listen</w>", ":</w>", "ickly</w>", "forest</w>", "ger</w>", "bl", "ter", "ite</w>", "blue</w>", "ding</w>", "been</w>", "different</w>", "quickly</w>", "blo", "reali", "bed</w>", "walk</w>", "store</w>", "This</w>", "voice</w>", "closer</w>", "stay</w>", "May", "tin", "curi", "high</w>", "sure</w>", "cho", "ange</w>", "goodbye</w>", "Wh", "ance</w>", "rabbit</w>", "ah</w>", "lly</w>", "Maybe</w>", "yel", "lo</w>", "bal", "arm", "became</w>", "Jane</w>", "nny</w>", "tion</w>", "mes</w>", "ele", "ins</w>", "ken</w>", "face</w>", "Dad</w>", "set</w>", "Sarah</w>", "fav", "boat</w>", "lee", "top</w>", "flower</w>", "sta", "three</w>", "dro", "curious</w>", "book</w>", "ready</w>", "cake</w>", "grabb", "Lil", "rough</w>", "strong</w>", "andma</w>", "tc", "Lila</w>", "ired</w>", "hole</w>", "ached</w>", "grabbed</w>", "only</w>", "shar", "table</w>", "dow</w>", "mean</w>", "fro", "anymore</w>", "her", "first</w>", "wait</w>", "yed</w>", "tri", "ap", "warm</w>", "story</w>", "key</w>", "ow", "ve", "ond</w>", "fell</w>", "Hel", "us</w>", "does</w>", "sees</w>", "jumped</w>", "stle</w>", "adventure</w>", "times</w>", "tchen</w>", "ears</w>", "kitchen</w>", "glad</w>", "under", "gra", "flo", "Everyone</w>", "birds</w>", "art</w>", "helped</w>", "prin", "see", "shouted</w>", "doll</w>", "boo", "under</w>", "din", "sing</w>", "him", "lady</w>", "kno", "bit</w>", "brea", "lowed</w>", "dress</w>", "happened</w>", "bright</w>", "cry</w>", "isy</w>", "Joe</w>", "used</w>", "yummy</w>", "beg", "mouse</w>", "zz", "reached</w>", "having</w>", "Don</w>", "realized</w>", "game</w>", "grass</w>", "Tommy</w>", "pret", "favor", "swi", "mp</w>", "cla", "favorite</w>", "cr", "Now</w>", "looks</w>", "ps</w>", "ary</w>", "lie", "began</w>", "bunny</w>", "coming</w>", "fil", "through</w>", "underst", "ear</w>", "rock</w>", "ws</w>", "stop</w>", "really</w>", "mar", "himself</w>", "open</w>", "ids</w>", "mum</w>", "world</w>", "cars</w>", "A</w>", "fully</w>", "done</w>", "thers</w>", "ect</w>", "making</w>", "butter", "ns</w>", "cooki", "vi", "waved</w>", "tor</w>", "ping</w>", "than</w>", "olly</w>", "tired</w>", "name</w>", "crea", "fo", "seen</w>", "kids</w>", "cked</w>", "fl", "near</w>", "can", "mag", "Wow</w>", "green</w>", "med</w>", "prom", "wai", "watch</w>", "dri", "pain", "pond</w>", "hun", "There</w>", "why</w>", "funny</w>", "ppy</w>", "cor", "pro", "soft</w>", "years</w>", "another</w>", "cried</w>", "running</w>", "parents</w>", "bar", "learn</w>", "hopped</w>", "yellow</w>", "doing</w>", "care</w>", "tast", "less", "Benny</w>", "full</w>", "stu", "worry</w>", "mom", "paper</w>", "cream</w>", "think</w>", "Sally</w>", "surprise</w>", "agre", "catch</w>", "Billy</w>", "hind</w>", "lled</w>", "trees</w>", "lesson</w>", "ask</w>", "happily</w>", "buil", "yard</w>", "Fin", "blocks</w>", "touch</w>", "lost</w>", "sy</w>", "move</w>", "held</w>", "ght", "rel</w>", "ome</w>", "wished</w>", "behind</w>", " \n</w>", "likes</w>", "worked</w>", "ough</w>", "brother</w>", "ing", "floor</w>", "pen", "dark</w>", "turned</w>", "needed</w>", "wonder", "shel", "ze</w>", "surprised</w>", "butterfly</w>", "wr", "light</w>", "cket</w>", "tell</w>", "carefully</w>", "At</w>", "anything</w>", "mis", "ished</w>", "slee", "arri", "wing</w>", "remembered</w>", "cious</w>", "enjoyed</w>", "cold</w>", "pick</w>", "Finally</w>", "Daisy</w>", "r</w>", "ings</w>", "dir", "dren</w>", "Hello</w>", "stre", "followed</w>", "hear</w>", "children</w>", "castle</w>", "Ji", "hill</w>", "arm</w>", "sat</w>", "cool</w>", "dis", "wrong</w>", "woo", "Gr", "Em", "ack", "broken</w>", "left</w>", "picture</w>", "wonderful</w>", "contin", "tures</w>", "swing</w>", "sound</w>", "continu", "buy</w>", "Amy</w>", "please</w>", "she", "frog</w>", "sun", "arrived</w>", "ash</w>", "close</w>", "herself</w>", "est", "window</w>", "aby</w>", "delicious</w>", "own</w>", "wind</w>", "colors</w>", "finished</w>", "else</w>", "gone</w>", "i</w>", "min", "tra", "coun", "zing</w>", "friendly</w>", "filled</w>", "squir", "someone</w>", "dge</w>", "lion</w>", "Why</w>", "Molly</w>", "climb</w>", "sn", "ies</w>", "ens</w>", "vis", "um</w>", "erous</w>", "fru", "books</w>", "ching</w>", "swe", "wards</w>", "gent", "continued</w>", "most</w>", "mm", "sn</w>", "shi", "mother</w>", "morning</w>", "fire</w>", "agreed</w>", "ses</w>", "wer</w>", "wants</w>", "stay", "bow</w>", "To", "finally</w>", "ars</w>", "getting</w>", "sweet</w>", "dol", "bag</w>", "leaves</w>", "qui", "enough</w>", "K</w>", "ph", "OK</w>", "jump</w>", "stick</w>", "tru", "zy</w>", "far</w>", "wel", "Ju", "baby</w>", "pink</w>", "stayed</w>", "understand</w>", "cookies</w>", "whe", "fre", "tall</w>", "ised</w>", "la</w>", "pes</w>", "ross</w>", "ames</w>", "trying</w>", "white</w>", "hot</w>", "lau", "laugh</w>", "poin", "inging</w>", "asks</w>", "few</w>", "tie</w>", "perf", "late</w>", "Come</w>", "smiles</w>", "bor", "makes</w>", "beach</w>", "scary</w>", "grandma</w>", "dr", "squirrel</w>", "sig", "thes</w>", "joy</w>", "wet</w>", "clothes</w>", "eld</w>", "ence</w>", "hung", "pictures</w>", "spl", "Jill</w>", "hungry</w>", "fix</w>", "sometimes</w>", "rest</w>", "ries</w>", "hea", "talk</w>", "forgot</w>", "mess</w>", "daddy</w>", "climbed</w>", "air</w>", "strange</w>", "pil", "amazing</w>", "bri", "gon</w>", "others</w>", "alon", "met</w>", "sear", "everything</w>", "hair</w>", "wl</w>", "explor", "dinner</w>", "alone</w>", "choo", "asure</w>", "thank</w>", "listened</w>", "cle</w>", "smel", "hon", "mal</w>", "Oh</w>", "dang", "So", "ak</w>", "ride</w>", "moment</w>", "scre", "lake</w>", "lar</w>", "Daddy</w>", "anc", "rought</w>", "brought</w>", "mus", "fox</w>", "puppy</w>", "Pe", "disa", "age</w>", "towards</w>", "aces</w>", "ught</w>", "Mary</w>", "ours</w>", "leave</w>", "ash", "tail</w>", "hor", "woods</w>", "duck</w>", "lie</w>", "might</w>", "runs</w>", "ffy</w>", "All</w>", "In</w>", "waited</w>", "Soon</w>", "ches</w>", "fra", "cess</w>", "tes</w>", "pping</w>", "ballo", "pur", "won</w>", "wasn</w>", "ats</w>", "rain", "Mam", "bas", "plan", "silly</w>", "t\u00e2</w>", "iry</w>", "sand</w>", "poli", "luffy</w>", "amazed</w>", "perfect</w>", "tain</w>", "Mama</w>", "zo", "spar", "owner</w>", "pulled</w>", "Li", "flying</w>", "turn</w>", "sk", "belie", "cal</w>", "draw</w>", "wee", "teddy</w>", "vy</w>", "In", "lowly</w>", "answ", "gger</w>", "thinks</w>", "wear</w>", "colorful</w>", "dance</w>", "moral</w>", "pet</w>", "cut</w>", "doc", "gro", "ang</w>", "ment</w>", "kis", "hide</w>", "race</w>", "broke</w>", "job</w>", "Okay</w>", "deep</w>", "Le", "icy</w>", "oke</w>", "sand", "worried</w>", "dry</w>", "bigger</w>", "promised</w>", "bug</w>", "fla", "party</w>", "gical</w>", "magical</w>", "faster</w>", "grate", "pretend</w>", "thy</w>", "piec", "grateful</w>", "pieces</w>", "soun", "train</w>", "Sure</w>", "stic", "buc", "slowly</w>", "living</w>", "shared</w>", "river</w>", "back", "board</w>", "everywhere</w>", "pati", "now", "sna", "blan", "tel", "such</w>", "year</w>", "ssed</w>", "dangerous</w>", "dirty</w>", "bran", "Just</w>", "dered</w>", "expla", "ucky</w>", "doctor</w>", "join</w>", "sit</w>", "lun", "son</w>", "wou", "ucks</w>", "lease</w>", "igh", "swa", "money</w>", "ious</w>", "ppear", "field</w>", "hid", "reach</w>", "carro", "cour", "farm", "sign</w>", "twins</w>", "vely</w>", "phan", "sted</w>", "tight</w>", "umb", "smart</w>", "mou", "visit</w>", "heavy</w>", "Mum</w>", "ged</w>", "ater</w>", "wings</w>", "Hi</w>", "acti", "believe</w>", "tted</w>", "across</w>", "course</w>", "ace", "words</w>", "child</w>", "ures</w>", "ppeared</w>", "apple</w>", "helping</w>", "ber", "bite</w>", "Ro", "dragon</w>", "Jimmy</w>", "wouldn</w>", "elephan", "Emma</w>", "pas", "same</w>", "remember</w>", "monster</w>", "swim</w>", "thout</w>", "bike</w>", "ig", "threw</w>", "spot</w>", "hig", "princess</w>", "chool</w>", "aring</w>", "stuck</w>", "quiet</w>", "farmer</w>", "clapped</w>", "school</w>", "shoes</w>", "start</w>", "fur", "song</w>", "suddenly</w>", "plane</w>", "cro", "comfor", "dolls</w>", "yst", "eating</w>", "stepped</w>", "closed</w>", "music</w>", "Please</w>", "bowl</w>", "tten</w>", "ece</w>", "crying</w>", "feels</w>", "sister</w>", "cray", "candy</w>", "ery</w>", "Grandma</w>", "must</w>", "xed</w>", "uni", "sleep</w>", "town</w>", "today</w>", "wall</w>", "foo", "off", "cover", "Inside</w>", "piece</w>", "cid", "hoped</w>", "ually</w>", "mil", "ises</w>", "Be", "ie</w>", "stra", "drove</w>", "tower</w>", "without</w>", "higher</w>", "youn", "animal</w>", "wri", "near", "ventually</w>", "lunch</w>", "brown</w>", "mine</w>", "mouth</w>", "cheered</w>", "welcome</w>", "swings</w>", "ck", "land</w>", "pushed</w>", "along</w>", "blanket</w>", "magic</w>", "ones</w>", "moved</w>", "black</w>", "accid", "turns</w>", "ank</w>", "tly</w>", "Their</w>", "balloon</w>", "trou", "though</w>", "chair</w>", "ben", "paint</w>", "gentle</w>", "treasure</w>", "shine</w>", "break</w>", "Sam", "singing</w>", "elephant</w>", "appl", "du", "chee", "hugs</w>", "ort</w>", "patient</w>", "fairy</w>", "ler</w>", "longer</w>", "sou", "build</w>", "phone</w>", "ening</w>", "dle</w>", "explained</w>", "pocket</w>", "exploring</w>", "upset</w>", "stead</w>", "ughter</w>", "games</w>", "relie", "preten", "seemed</w>", "sang</w>", "althy</w>", "young</w>", "fight</w>", "nearby</w>", "snow", "tor", "Bu", "bath", "swee", "Sammy</w>", "well</w>", "bucket</w>", "comes</w>", "teac", "noises</w>", "shook</w>", "purple</w>", "secre", "ire</w>", "stories</w>", "bee</w>", "neigh", "adventures</w>", "forget</w>", "rocks</w>", "soup</w>", "backyard</w>", "enjoy</w>", "On</w>", "lonely</w>", "ser", "My</w>", "sc", "ake</w>", "ought</w>", "monkey</w>", "fire", "daughter</w>", "shapes</w>", "hold</w>", "woke</w>", "jour", "stars</w>", "Fluffy</w>", "shes</w>", "sea</w>", "Of</w>", "lec", "fused</w>", "tiny</w>", "bby</w>", "star</w>", "wondered</w>", "ot</w>", "taking</w>", "wish</w>", "3</w>", "street</w>", "caught</w>", "wise</w>", "naugh", "dist", "takes</w>", "juice</w>", "naughty</w>", "rainbow</w>", "heart</w>", "hit</w>", "teacher</w>", "swam</w>", "ion</w>", "El", "shing</w>", "loves</w>", "lding</w>", "Later</w>", "Wi", "val", "kite</w>", "erful</w>", "round</w>", "aceful</w>", "Some", "driver</w>", "ssy</w>", "relieved</w>", "mming</w>", "ten</w>", "fall</w>", "ney</w>", "ship</w>", "nap</w>", "busy</w>", "hello</w>", "cir", "ward</w>", "clu", "mad</w>", "ring</w>", "fence</w>", "cute</w>", "orange</w>", "sounds</w>", "dropped</w>", "nothing</w>", "owl</w>", "lar", "fit</w>", "exciting</w>", "basket</w>", "ghtly</w>", "Mr</w>", "jar</w>", "days</w>", "kin", "How</w>", "cl", "body</w>", "covered</w>", "huge</w>", "ggled</w>", "less</w>", "sitting</w>", "ountain</w>", "pull</w>", "bur", "forever</w>", "ms</w>", "bench</w>", "storm</w>", "real</w>", "tal</w>", "sol", "sca", "coat</w>", "swimming</w>", "secret</w>", "sunny</w>", "drink</w>", "thday</w>", "ski", "cave</w>", "chi", "ttens</w>", "tive</w>", "nose</w>", "follow</w>", "onto</w>", "promise</w>", "irs</w>", "arms</w>", "el</w>", "snow</w>", "Hey</w>", "fraid</w>", "touched</w>", "afraid</w>", "ess</w>", "ep</w>", "pudd", "boun", "branch</w>", "Ki", "nest</w>", "inter", "farm</w>", "Jenny</w>", "nor", "gives</w>", "sail", "je", "att", "An", "accident", "sick</w>", "dream</w>", "andy</w>", "kne", "excite", "bring</w>", "laughing</w>", "har", "pow", "apples</w>", "gift</w>", "holding</w>", "birthday</w>", "accidentally</w>", "ducks</w>", "bru", "ble", "Jen</w>", "ation</w>", "instead</w>", "aced</w>", "bottle</w>", "mach", "cozy</w>", "With</w>", "button</w>", "grow</w>", "wra", "rope</w>", "searched</w>", "tent</w>", "cheese</w>", "later</w>", "word</w>", "jun", "fair</w>", "lt</w>", "life</w>", "sie</w>", "interest", "pointed</w>", "wom", "puts</w>", "sandwi", "watching</w>", "woman</w>", "part</w>", "imag", "sug", "bought</w>", "picn", "sive</w>", "plan</w>", "at", "anyone</w>", "road</w>", "bush</w>", "wide</w>", "live</w>", "it", "treat</w>", "acked</w>", "shelf</w>", "pa</w>", "adm", "sharp</w>", "clou", "eas", "talked</w>", "illa", "hes</w>", "comfortable</w>", "Where</w>", "spark", "Twee", "person</w>", "villa", "quest", "Are</w>", "kee", "bread</w>", "collec", "proble", "acks</w>", "picnic</w>", "anced</w>", "neighb", "spotted</w>", "andpa</w>", "lucky</w>", "shining</w>", "myst", "fal", "lock</w>", "py</w>", "snowman</w>", "clouds</w>"], "merges": [[" ", "</w>"], ["e", "</w>"], ["d", "</w>"], [".", "</w>"], ["t", "h"], ["y", "</w>"], ["t", "</w>"], ["s", "</w>"], ["a", "n"], ["e", "r"], ["e", "d</w>"], ["o", "</w>"], ["n", "</w>"], ["an", "d</w>"], [",", "</w>"], ["th", "e</w>"], ["h", "e</w>"], ["a", "</w>"], ["o", "u"], ["w", "a"], ["t", "o</w>"], ["i", "n"], ["er", "</w>"], ["a", "r"], ["g", "</w>"], ["\"", "</w>"], ["m", "</w>"], ["wa", "s</w>"], ["\n", "</w>"], ["\n", "\n</w>"], ["h", "e"], ["l", "</w>"], ["h", "a"], ["s", "a"], ["o", "r"], ["i", "l"], ["in", "g</w>"], ["e", "n"], ["i", "t</w>"], ["k", "</w>"], ["l", "i"], ["l", "o"], ["th", "e"], ["w", "</w>"], ["i", "s</w>"], ["r", "e"], ["o", "n</w>"], ["m", "e</w>"], ["s", "t"], ["a", "y</w>"], ["o", "m</w>"], ["a", "t</w>"], ["T", "he"], ["i", "r"], ["S", "he</w>"], ["h", "er</w>"], ["H", "e</w>"], ["i", "d</w>"], ["i", "n</w>"], ["The", "y</w>"], ["a", "l"], ["'", "</w>"], ["p", "l"], ["r", "i"], ["er", "e</w>"], ["f", "</w>"], ["t", "o"], ["an", "</w>"], ["th", "</w>"], ["T", "he</w>"], ["w", "i"], ["sa", "id</w>"], ["t", "i"], ["p", "</w>"], ["a", "c"], ["il", "y</w>"], ["!", "</w>"], ["n", "o"], ["e", "s</w>"], ["k", "ed</w>"], ["ou", "</w>"], ["u", "t</w>"], ["h", "</w>"], ["t", "t"], ["l", "e</w>"], ["s", "he</w>"], ["e", "l"], ["t", "ed</w>"], ["p", "p"], ["o", "n"], ["wi", "th</w>"], ["L", "ily</w>"], ["h", "is</w>"], ["O", "n"], ["v", "e</w>"], ["l", "d</w>"], ["v", "er"], ["e", "n</w>"], ["b", "e"], ["d", "ay</w>"], ["f", "or"], ["k", "e</w>"], ["o", "f</w>"], ["c", "e</w>"], ["th", "at</w>"], ["m", "y</w>"], ["l", "y</w>"], ["h", "o"], ["s", "o</w>"], ["i", "d"], ["n", "e"], ["a", "s"], ["o", "m"], ["ha", "d</w>"], ["the", "y</w>"], ["y", "ou</w>"], ["f", "u"], ["m", "a"], ["r", "o"], ["ver", "y</w>"], ["b", "o"], ["l", "e"], ["g", "h"], ["n", "d</w>"], ["I", "</w>"], ["ha", "pp"], ["s", "e</w>"], ["w", "an"], ["h", "i"], ["for", "</w>"], ["d", "o"], ["b", "i"], ["I", "t</w>"], ["e", "t</w>"], ["c", "ar"], ["tt", "le</w>"], ["d", "s</w>"], ["ti", "me</w>"], ["al", "l</w>"], ["li", "ttle</w>"], ["c", "a"], ["th", "ere</w>"], ["r", "a"], ["ou", "nd</w>"], ["ou", "ld</w>"], ["u", "r"], ["happ", "y</w>"], ["m", "om</w>"], ["y", "s</w>"], ["s", "m"], [" ", "\n\n</w>"], ["en", "t</w>"], ["s", "h"], ["no", "t</w>"], ["f", "ri"], ["th", "er</w>"], ["s", "t</w>"], ["bi", "g</w>"], ["sa", "w</w>"], ["u", "n"], ["o", "o"], ["fri", "en"], ["a", "m"], ["ar", "e</w>"], ["On", "e</w>"], ["ir", "</w>"], ["lo", "o"], ["T", "i"], ["b", "ut</w>"], ["v", "ed</w>"], ["s", "e"], ["w", "ere</w>"], ["pl", "ay</w>"], ["On", "ce</w>"], ["u", "p"], ["r", "y</w>"], ["ac", "k</w>"], ["i", "c"], ["gh", "t</w>"], ["ha", "t</w>"], ["t", "s</w>"], ["a", "d</w>"], ["b", "e</w>"], ["ou", "t</w>"], ["e", "c"], ["u", "c"], ["on", "e</w>"], ["g", "ir"], ["wan", "ted</w>"], ["s", "p"], ["up", "on</w>"], ["?", "</w>"], ["gir", "l</w>"], ["c", "o"], ["hi", "m</w>"], ["g", "a"], ["the", "m</w>"], ["s", "o"], ["a", "y"], ["u", "p</w>"], ["the", "ir</w>"], ["sm", "il"], ["v", "er</w>"], ["he", "l"], ["m", "my</w>"], ["T", "om</w>"], ["e", "x"], ["w", "h"], ["l", "a"], ["t", "a"], ["ha", "ve</w>"], ["he", "n</w>"], ["ar", "</w>"], ["B", "en</w>"], ["t", "er</w>"], ["B", "ut</w>"], ["d", "e</w>"], ["w", "ent</w>"], ["g", "o</w>"], ["d", "d"], ["th", "ing</w>"], ["fu", "l</w>"], ["or", "e</w>"], ["id", "e</w>"], ["i", "s"], ["ne", "w</w>"], ["x", "</w>"], ["il", "l</w>"], ["frien", "ds</w>"], ["c", "an</w>"], ["ou", "r"], ["p", "ar"], ["f", "el"], ["g", "s</w>"], ["t", "e</w>"], ["g", "e"], ["pl", "ay"], ["g", "o"], ["wa", "y</w>"], ["in", "d</w>"], ["am", "ed</w>"], ["r", "om</w>"], ["s", "ide</w>"], ["om", "e"], ["Y", "ou</w>"], ["Ti", "mmy</w>"], ["b", "ack</w>"], ["smil", "ed</w>"], ["to", "o</w>"], ["n", "amed</w>"], ["lo", "ved</w>"], ["s", "ome"], ["st", "ar"], ["as", "ked</w>"], ["om", "my</w>"], ["k", "s</w>"], ["li", "ke</w>"], ["c", "ould</w>"], ["w", "n</w>"], ["fu", "n</w>"], ["fel", "t</w>"], ["a", "m</w>"], ["k", "ing</w>"], ["loo", "ked</w>"], ["ar", "ound</w>"], ["e", "e"], ["c", "i"], ["c", "h</w>"], ["or", "</w>"], ["bo", "y</w>"], ["b", "ir"], ["ar", "d</w>"], ["w", "or"], ["a", "b"], ["b", "u"], ["a", "l</w>"], ["\u20ac", "</w>"], ["\u00e2", "</w>"], ["o", "ther</w>"], ["l", "ed</w>"], ["p", "o"], ["th", "in"], ["c", "h"], ["hel", "p</w>"], ["w", "ould</w>"], ["se", "e</w>"], ["oo", "d</w>"], ["m", "e"], ["our", "</w>"], ["w", "hat</w>"], ["ma", "ke</w>"], ["so", "me</w>"], ["d", "id</w>"], ["t", "re"], ["sa", "ys</w>"], ["ge", "ther</w>"], ["star", "ted</w>"], ["r", "u"], ["j", "u"], ["a", "way</w>"], ["wa", "l"], ["r", "an</w>"], ["o", "k</w>"], ["ca", "me</w>"], ["some", "thing</w>"], ["to", "gether</w>"], ["r", "ou"], ["d", "o</w>"], ["wan", "t</w>"], ["ma", "de</w>"], ["h", "u"], ["i", "ce</w>"], ["par", "k</w>"], ["s", "car"], ["n", "n"], ["ur", "e</w>"], ["s", "ho"], ["ex", "ci"], ["sa", "d</w>"], ["f", "rom</w>"], ["Ti", "m</w>"], ["ho", "me</w>"], ["go", "t</w>"], ["no", "w</w>"], ["a", "ga"], ["g", "g"], ["f", "ound</w>"], ["d", "i"], ["aga", "in</w>"], ["ri", "ed</w>"], ["d", "ec"], ["q", "u"], ["the", "n</w>"], ["m", "an</w>"], ["pp", "ed</w>"], ["lo", "w"], ["p", "ut</w>"], ["w", "hen</w>"], ["s", "ed</w>"], ["m", "ore</w>"], ["g", "e</w>"], ["M", "om</w>"], ["bir", "d</w>"], ["S", "u"], ["re", "a"], ["wh", "o</w>"], ["g", "h</w>"], ["play", "ing</w>"], ["s", "s</w>"], ["al", "ly</w>"], ["er", "s</w>"], ["a", "s</w>"], ["thin", "gs</w>"], ["g", "r"], ["p", "ic"], ["ac", "h</w>"], ["m", "b"], ["li", "ked</w>"], ["l", "d"], ["w", "e</w>"], ["lo", "n"], ["h", "an"], ["p", "a"], ["l", "l</w>"], ["exci", "ted</w>"], ["dec", "id"], ["s", "i"], ["d", "y</w>"], ["p", "u"], ["decid", "ed</w>"], ["g", "et</w>"], ["m", "p"], ["g", "i"], ["c", "ou"], ["scar", "ed</w>"], ["frien", "d</w>"], ["f", "e"], ["ou", "s</w>"], ["ou", "se</w>"], ["c", "lo"], ["do", "wn</w>"], ["M", "a"], ["j", "o"], ["ver", "y"], ["A", "nn"], ["th", "ou"], ["W", "e</w>"], ["do", "g</w>"], ["b", "b"], ["S", "ar"], ["wa", "ys</w>"], ["t", "e"], ["sp", "ec"], ["u", "se</w>"], ["g", "re"], ["Ann", "a</w>"], ["w", "ill</w>"], ["ou", "t"], ["f", "ind</w>"], ["s", "u"], ["S", "am</w>"], ["ac", "e</w>"], ["y", "our</w>"], ["d", "id"], ["al", "ways</w>"], ["ab", "out</w>"], ["o", "ld</w>"], ["to", "ok</w>"], ["Ma", "x</w>"], ["n", "ed</w>"], ["uc", "h</w>"], ["m", "ommy</w>"], ["m", "o"], ["did", "n</w>"], ["tre", "e</w>"], ["out", "side</w>"], ["d", "e"], ["s", "or"], ["p", "e"], ["b", "</w>"], ["spec", "i"], ["to", "ys</w>"], ["le", "ar"], ["g", "ood</w>"], ["en", "ed</w>"], ["k", "e"], ["u", "gh"], ["en", "t"], ["p", "re"], ["s", "w"], ["J", "o"], ["tt", "er</w>"], ["f", "i"], ["thou", "ght</w>"], ["speci", "al</w>"], ["W", "hen</w>"], ["ro", "om</w>"], ["M", "i"], ["ta", "ke</w>"], ["an", "y</w>"], ["k", "new</w>"], ["ld", "n</w>"], ["car", "</w>"], ["k", "i"], ["o", "p"], ["f", "f"], ["d", "ad</w>"], ["an", "g"], ["en", "ly</w>"], ["dd", "enly</w>"], ["H", "er</w>"], ["to", "y</w>"], ["l", "u"], ["an", "d"], ["ne", "ver</w>"], ["m", "u"], ["k", "y</w>"], ["f", "a"], ["sor", "ry</w>"], ["gg", "ed</w>"], ["n", "y</w>"], ["c", "om"], ["ho", "w</w>"], ["d", "re"], ["b", "all</w>"], ["m", "uch</w>"], ["f", "ter</w>"], ["th", "an"], ["o", "l"], ["k", "now</w>"], ["car", "e"], ["en", "d</w>"], ["S", "o</w>"], ["h", "ouse</w>"], ["pl", "e</w>"], ["J", "ack</w>"], ["t", "r"], ["er", "ed</w>"], ["in", "to</w>"], ["n", "a"], ["ga", "ve</w>"], ["loo", "k</w>"], ["b", "ro"], ["an", "t</w>"], ["wa", "ter</w>"], ["v", "en</w>"], ["th", "is</w>"], ["a", "d"], ["p", "rou"], ["t", "y</w>"], ["t", "ried</w>"], ["in", "side</w>"], ["t", "ing</w>"], ["t", "w"], ["i", "f</w>"], ["ex", "pl"], ["s", "el"], ["an", "i"], ["to", "ld</w>"], ["he", "ard</w>"], ["t", "ch</w>"], ["Su", "ddenly</w>"], ["bo", "x</w>"], ["e", "ach</w>"], ["cou", "ldn</w>"], ["c", "he"], ["Mi", "a</w>"], ["wa", "r"], ["co", "me</w>"], ["Sar", "a</w>"], ["b", "y</w>"], ["o", "ver</w>"], ["play", "ed</w>"], ["ca", "use</w>"], ["l", "ou"], ["la", "ugh"], ["prou", "d</w>"], ["c", "k</w>"], ["The", "n</w>"], ["ju", "st</w>"], ["hu", "gged</w>"], ["sh", "ed</w>"], ["c", "al"], ["st", "r"], ["lon", "g</w>"], ["st", "o"], ["H", "is</w>"], ["f", "low"], ["be", "cause</w>"], ["L", "et</w>"], ["m", "any</w>"], ["uc", "k</w>"], ["F", "rom</w>"], ["n", "o</w>"], ["f", "in"], ["y", "ing</w>"], ["f", "e</w>"], ["o", "w</w>"], ["k", "es</w>"], ["c", "u"], ["c", "oo"], ["p", "r"], ["an", "y"], ["e", "very"], ["A", "nd</w>"], ["T", "hat</w>"], ["ar", "d"], ["sh", "in"], ["il", "e</w>"], ["un", "ti"], ["a", "u"], ["n", "ice</w>"], ["f", "f</w>"], ["v", "ing</w>"], ["unti", "l</w>"], ["ch", "ed</w>"], ["on", "g</w>"], ["w", "e"], ["h", "ere</w>"], ["as", "t</w>"], ["co", "l"], ["sm", "all</w>"], ["be", "ar</w>"], ["ri", "ght</w>"], ["ra", "bb"], ["c", "re"], ["ee", "p</w>"], ["dd", "y</w>"], ["be", "tter</w>"], ["k", "et</w>"], ["f", "t</w>"], ["n", "ing</w>"], ["wh", "ere</w>"], ["b", "ra"], ["d", "er"], ["lear", "ned</w>"], ["-", "</w>"], ["W", "hat</w>"], ["is", "h</w>"], ["M", "ommy</w>"], ["al", "s</w>"], ["h", "ur"], ["el", "l</w>"], ["lo", "w</w>"], ["g", "ard"], ["v", "es</w>"], ["Y", "es</w>"], ["t", "ur"], ["n", "i"], ["gard", "en</w>"], ["b", "a"], ["be", "st</w>"], ["p", "i"], ["s", "ky</w>"], ["l", "s</w>"], ["care", "ful</w>"], ["be", "au"], ["d", "on</w>"], ["p", "ed</w>"], ["i", "ts</w>"], ["r", "ed</w>"], ["lo", "ve</w>"], ["v", "ent"], ["laugh", "ed</w>"], ["c", "le"], ["b", "le</w>"], ["than", "ked</w>"], ["fe", "el"], ["e", "at</w>"], ["i", "se</w>"], ["p", "ri"], ["z", "ed</w>"], ["sel", "f</w>"], ["st", "ill</w>"], ["sa", "y</w>"], ["o", "ff</w>"], ["s", "ur"], ["s", "h</w>"], ["y", "es</w>"], ["tt", "y</w>"], ["e", "ven</w>"], ["p", "t</w>"], ["lou", "d</w>"], ["C", "an</w>"], ["beau", "ti"], ["Jo", "h"], ["beauti", "ful</w>"], ["le", "w</w>"], ["li", "st"], ["lo", "ts</w>"], ["s", "li"], ["d", "ed</w>"], ["f", "am"], ["ee", "l</w>"], ["k", "ind</w>"], ["f", "ly</w>"], ["m", "als</w>"], ["st", "or"], ["ani", "mals</w>"], ["c", "ed</w>"], ["c", "at</w>"], ["B", "o"], ["sa", "fe</w>"], ["L", "uc"], ["f", "eel</w>"], ["m", "i"], ["bo", "th</w>"], ["e", "st</w>"], ["e", "ar"], ["an", "e</w>"], ["tw", "o</w>"], ["o", "ple</w>"], ["li", "ved</w>"], ["le", "t</w>"], ["su", "n</w>"], ["wal", "ked</w>"], ["s", "s"], ["le", "a"], ["A", "s</w>"], ["f", "ir"], ["ou", "n"], ["d", "er</w>"], ["a", "te</w>"], ["in", "e</w>"], ["T", "han"], ["k", "ay</w>"], ["e", "ver</w>"], ["po", "t</w>"], ["gr", "ound</w>"], ["ang", "ry</w>"], ["l", "es</w>"], ["as", "e</w>"], ["pe", "ople</w>"], ["t", "u"], ["m", "a</w>"], ["t", "ry</w>"], ["ke", "pt</w>"], ["g", "u"], ["Luc", "y</w>"], ["cal", "led</w>"], ["bra", "ve</w>"], ["fam", "ily</w>"], ["so", "on</w>"], ["e", "very</w>"], ["sur", "pri"], ["hur", "t</w>"], ["for", "e</w>"], ["wa", "t"], ["N", "o</w>"], ["f", "lew</w>"], ["i", "l</w>"], ["h", "ard</w>"], ["f", "ast</w>"], ["id", "e"], ["th", "re"], ["c", "on"], ["A", "fter</w>"], ["il", "ly</w>"], ["i", "mp"], ["st", "er</w>"], ["b", "ad</w>"], ["go", "ing</w>"], ["D", "a"], ["Than", "k</w>"], ["sh", "are</w>"], ["p", "e</w>"], ["Joh", "n</w>"], ["p", "er"], ["gi", "ve</w>"], ["f", "ish</w>"], ["dd", "ed</w>"], ["m", "on"], ["d", "ra"], ["m", "or"], ["sh", "ould</w>"], ["pre", "tty</w>"], ["w", "in"], ["expl", "ore</w>"], ["shin", "y</w>"], ["be", "fore</w>"], ["ic", "</w>"], ["op", "ened</w>"], ["c", "li"], ["ac", "h"], ["w", "hi"], ["sho", "w"], ["no", "ise</w>"], ["ad", "vent"], ["r", "un"], ["y", "e</w>"], ["c", "ks</w>"], ["al", "so</w>"], ["ru", "n</w>"], ["do", "or</w>"], ["lu", "e</w>"], ["st", "e"], ["d", "a"], ["lo", "t</w>"], ["ab", "le</w>"], ["\u2122", "</w>"], ["feel", "ing</w>"], ["k", "eep</w>"], ["no", "ti"], ["E", "very</w>"], ["hu", "g</w>"], ["ne", "x"], ["no", "dded</w>"], ["n", "er</w>"], ["b", "r"], ["wal", "king</w>"], ["ha", "s</w>"], ["cli", "mb"], ["Su", "e</w>"], ["E", "very"], ["ide", "a</w>"], ["nex", "t</w>"], ["sp", "o"], ["c", "e"], ["ar", "k</w>"], ["clo", "s"], ["k", "ly</w>"], ["pic", "ked</w>"], ["t", "ure</w>"], ["un", "ny</w>"], ["wh", "ile</w>"], ["ic", "k</w>"], ["di", "ff"], ["e", "y</w>"], ["loo", "king</w>"], ["as", "s</w>"], ["ne", "ed</w>"], ["ju", "mp"], ["w", "on"], ["l", "ing</w>"], ["S", "pot</w>"], ["me", "mb"], ["be", "ing</w>"], ["d", "ly</w>"], ["Bo", "b</w>"], ["v", "o"], ["tt", "ing</w>"], ["sho", "w</w>"], ["smil", "e</w>"], ["g", "oo"], ["c", "ha"], ["t", "ou"], ["e", "a"], ["flow", "ers</w>"], ["in", "k</w>"], ["p", "li"], ["t", "al"], ["sto", "pped</w>"], ["g", "l"], ["en", "ny</w>"], ["or", "t"], ["en", "jo"], ["cle", "an</w>"], ["noti", "ced</w>"], ["c", "ra"], ["e", "yes</w>"], ["han", "ds</w>"], ["s", "qu"], ["s", "ha"], ["col", "or"], ["r", "e</w>"], ["imp", "ort"], ["re", "memb"], ["wor", "k</w>"], ["gre", "at</w>"], ["he", "ad</w>"], ["f", "ood</w>"], ["el", "y</w>"], ["ra", "in</w>"], ["sh", "ou"], ["re", "s</w>"], ["b", "ye</w>"], ["L", "oo"], ["h", "and</w>"], ["re", "pli"], ["en", "ts</w>"], ["u", "mmy</w>"], ["repli", "ed</w>"], ["import", "ant</w>"], ["re", "ad</w>"], ["Loo", "k</w>"], ["f", "ol"], ["pl", "ace</w>"], ["ne", "e"], ["diff", "er"], ["ch", "il"], ["ro", "w</w>"], ["a", "ma"], ["ni", "ght</w>"], ["de", "li"], ["on", "s</w>"], ["sli", "de</w>"], ["pl", "e"], ["p", "er</w>"], ["a", "fter</w>"], ["bu", "tt"], ["o", "kay</w>"], ["every", "one</w>"], ["in", "ed</w>"], ["d", "bye</w>"], ["wat", "ched</w>"], ["D", "o</w>"], ["show", "ed</w>"], ["tr", "uck</w>"], ["list", "en</w>"], [":", "</w>"], ["ic", "kly</w>"], ["for", "est</w>"], ["g", "er</w>"], ["b", "l"], ["t", "er"], ["i", "te</w>"], ["b", "lue</w>"], ["d", "ing</w>"], ["be", "en</w>"], ["differ", "ent</w>"], ["qu", "ickly</w>"], ["b", "lo"], ["rea", "li"], ["b", "ed</w>"], ["wal", "k</w>"], ["st", "ore</w>"], ["T", "his</w>"], ["vo", "ice</w>"], ["clos", "er</w>"], ["st", "ay</w>"], ["M", "ay"], ["t", "in"], ["cu", "ri"], ["hi", "gh</w>"], ["s", "ure</w>"], ["c", "ho"], ["an", "ge</w>"], ["goo", "dbye</w>"], ["W", "h"], ["an", "ce</w>"], ["rabb", "it</w>"], ["a", "h</w>"], ["l", "ly</w>"], ["May", "be</w>"], ["y", "el"], ["l", "o</w>"], ["b", "al"], ["ar", "m"], ["be", "came</w>"], ["J", "ane</w>"], ["nn", "y</w>"], ["ti", "on</w>"], ["m", "es</w>"], ["el", "e"], ["in", "s</w>"], ["k", "en</w>"], ["f", "ace</w>"], ["D", "ad</w>"], ["s", "et</w>"], ["Sar", "ah</w>"], ["fa", "v"], ["bo", "at</w>"], ["le", "e"], ["to", "p</w>"], ["flow", "er</w>"], ["st", "a"], ["thre", "e</w>"], ["d", "ro"], ["curi", "ous</w>"], ["bo", "ok</w>"], ["rea", "dy</w>"], ["ca", "ke</w>"], ["g", "rabb"], ["L", "il"], ["rou", "gh</w>"], ["str", "ong</w>"], ["and", "ma</w>"], ["t", "c"], ["Lil", "a</w>"], ["ir", "ed</w>"], ["ho", "le</w>"], ["ach", "ed</w>"], ["grabb", "ed</w>"], ["on", "ly</w>"], ["sh", "ar"], ["ta", "ble</w>"], ["do", "w</w>"], ["me", "an</w>"], ["f", "ro"], ["any", "more</w>"], ["h", "er"], ["fir", "st</w>"], ["wa", "it</w>"], ["y", "ed</w>"], ["t", "ri"], ["a", "p"], ["war", "m</w>"], ["stor", "y</w>"], ["ke", "y</w>"], ["o", "w"], ["v", "e"], ["on", "d</w>"], ["fel", "l</w>"], ["H", "el"], ["u", "s</w>"], ["do", "es</w>"], ["se", "es</w>"], ["jump", "ed</w>"], ["st", "le</w>"], ["advent", "ure</w>"], ["ti", "mes</w>"], ["tc", "hen</w>"], ["ear", "s</w>"], ["ki", "tchen</w>"], ["gl", "ad</w>"], ["un", "der"], ["g", "ra"], ["f", "lo"], ["Every", "one</w>"], ["bir", "ds</w>"], ["ar", "t</w>"], ["hel", "ped</w>"], ["pr", "in"], ["se", "e"], ["shou", "ted</w>"], ["do", "ll</w>"], ["bo", "o"], ["un", "der</w>"], ["d", "in"], ["s", "ing</w>"], ["hi", "m"], ["la", "dy</w>"], ["k", "no"], ["b", "it</w>"], ["b", "rea"], ["low", "ed</w>"], ["dre", "ss</w>"], ["happ", "ened</w>"], ["b", "right</w>"], ["c", "ry</w>"], ["is", "y</w>"], ["Jo", "e</w>"], ["u", "sed</w>"], ["y", "ummy</w>"], ["be", "g"], ["m", "ouse</w>"], ["z", "z"], ["re", "ached</w>"], ["ha", "ving</w>"], ["D", "on</w>"], ["reali", "zed</w>"], ["ga", "me</w>"], ["gr", "ass</w>"], ["T", "ommy</w>"], ["pre", "t"], ["fav", "or"], ["s", "wi"], ["m", "p</w>"], ["c", "la"], ["favor", "ite</w>"], ["c", "r"], ["N", "ow</w>"], ["loo", "ks</w>"], ["p", "s</w>"], ["ar", "y</w>"], ["li", "e"], ["beg", "an</w>"], ["b", "unny</w>"], ["com", "ing</w>"], ["f", "il"], ["th", "rough</w>"], ["under", "st"], ["e", "ar</w>"], ["ro", "ck</w>"], ["w", "s</w>"], ["sto", "p</w>"], ["re", "ally</w>"], ["m", "ar"], ["him", "self</w>"], ["op", "en</w>"], ["id", "s</w>"], ["mu", "m</w>"], ["wor", "ld</w>"], ["car", "s</w>"], ["A", "</w>"], ["fu", "lly</w>"], ["d", "one</w>"], ["th", "ers</w>"], ["ec", "t</w>"], ["ma", "king</w>"], ["butt", "er"], ["n", "s</w>"], ["coo", "ki"], ["v", "i"], ["wa", "ved</w>"], ["t", "or</w>"], ["p", "ing</w>"], ["th", "an</w>"], ["ol", "ly</w>"], ["t", "ired</w>"], ["na", "me</w>"], ["c", "rea"], ["f", "o"], ["se", "en</w>"], ["k", "ids</w>"], ["c", "ked</w>"], ["f", "l"], ["ne", "ar</w>"], ["c", "an"], ["ma", "g"], ["W", "ow</w>"], ["gre", "en</w>"], ["m", "ed</w>"], ["pr", "om"], ["wa", "i"], ["wa", "tch</w>"], ["d", "ri"], ["pa", "in"], ["p", "ond</w>"], ["h", "un"], ["T", "here</w>"], ["wh", "y</w>"], ["fu", "nny</w>"], ["pp", "y</w>"], ["c", "or"], ["p", "ro"], ["so", "ft</w>"], ["y", "ears</w>"], ["an", "other</w>"], ["c", "ried</w>"], ["run", "ning</w>"], ["par", "ents</w>"], ["b", "ar"], ["lear", "n</w>"], ["ho", "pped</w>"], ["yel", "low</w>"], ["do", "ing</w>"], ["car", "e</w>"], ["ta", "st"], ["le", "ss"], ["B", "enny</w>"], ["fu", "ll</w>"], ["st", "u"], ["wor", "ry</w>"], ["m", "om"], ["pa", "per</w>"], ["cre", "am</w>"], ["thin", "k</w>"], ["S", "ally</w>"], ["surpri", "se</w>"], ["a", "gre"], ["ca", "tch</w>"], ["B", "illy</w>"], ["h", "ind</w>"], ["l", "led</w>"], ["tre", "es</w>"], ["less", "on</w>"], ["as", "k</w>"], ["happ", "ily</w>"], ["bu", "il"], ["y", "ard</w>"], ["F", "in"], ["blo", "cks</w>"], ["tou", "ch</w>"], ["lo", "st</w>"], ["s", "y</w>"], ["mo", "ve</w>"], ["he", "ld</w>"], ["gh", "t"], ["re", "l</w>"], ["o", "me</w>"], ["wi", "shed</w>"], ["be", "hind</w>"], [" ", "\n</w>"], ["li", "kes</w>"], ["wor", "ked</w>"], ["ou", "gh</w>"], ["bro", "ther</w>"], ["in", "g"], ["flo", "or</w>"], ["p", "en"], ["d", "ark</w>"], ["tur", "ned</w>"], ["nee", "ded</w>"], ["won", "der"], ["s", "hel"], ["z", "e</w>"], ["surpri", "sed</w>"], ["butter", "fly</w>"], ["w", "r"], ["li", "ght</w>"], ["c", "ket</w>"], ["t", "ell</w>"], ["care", "fully</w>"], ["A", "t</w>"], ["any", "thing</w>"], ["m", "is"], ["i", "shed</w>"], ["s", "lee"], ["ar", "ri"], ["w", "ing</w>"], ["rememb", "ered</w>"], ["ci", "ous</w>"], ["enjo", "yed</w>"], ["co", "ld</w>"], ["pic", "k</w>"], ["Fin", "ally</w>"], ["Da", "isy</w>"], ["r", "</w>"], ["in", "gs</w>"], ["d", "ir"], ["dre", "n</w>"], ["Hel", "lo</w>"], ["st", "re"], ["fol", "lowed</w>"], ["he", "ar</w>"], ["chil", "dren</w>"], ["ca", "stle</w>"], ["J", "i"], ["h", "ill</w>"], ["ar", "m</w>"], ["sa", "t</w>"], ["coo", "l</w>"], ["d", "is"], ["wr", "ong</w>"], ["w", "oo"], ["G", "r"], ["E", "m"], ["ac", "k"], ["bro", "ken</w>"], ["le", "ft</w>"], ["pic", "ture</w>"], ["wonder", "ful</w>"], ["con", "tin"], ["tu", "res</w>"], ["sw", "ing</w>"], ["s", "ound</w>"], ["contin", "u"], ["bu", "y</w>"], ["A", "my</w>"], ["ple", "ase</w>"], ["s", "he"], ["fro", "g</w>"], ["s", "un"], ["arri", "ved</w>"], ["as", "h</w>"], ["clo", "se</w>"], ["her", "self</w>"], ["e", "st"], ["win", "dow</w>"], ["ab", "y</w>"], ["deli", "cious</w>"], ["o", "wn</w>"], ["w", "ind</w>"], ["color", "s</w>"], ["fin", "ished</w>"], ["el", "se</w>"], ["g", "one</w>"], ["i", "</w>"], ["m", "in"], ["t", "ra"], ["cou", "n"], ["z", "ing</w>"], ["frien", "dly</w>"], ["fil", "led</w>"], ["squ", "ir"], ["some", "one</w>"], ["d", "ge</w>"], ["li", "on</w>"], ["Wh", "y</w>"], ["M", "olly</w>"], ["climb", "</w>"], ["s", "n"], ["i", "es</w>"], ["en", "s</w>"], ["v", "is"], ["u", "m</w>"], ["er", "ous</w>"], ["f", "ru"], ["boo", "ks</w>"], ["ch", "ing</w>"], ["sw", "e"], ["war", "ds</w>"], ["g", "ent"], ["continu", "ed</w>"], ["mo", "st</w>"], ["m", "m"], ["s", "n</w>"], ["s", "hi"], ["m", "other</w>"], ["mor", "ning</w>"], ["fir", "e</w>"], ["agre", "ed</w>"], ["s", "es</w>"], ["w", "er</w>"], ["wan", "ts</w>"], ["st", "ay"], ["bo", "w</w>"], ["T", "o"], ["fin", "ally</w>"], ["ar", "s</w>"], ["ge", "tting</w>"], ["swe", "et</w>"], ["do", "l"], ["ba", "g</w>"], ["lea", "ves</w>"], ["qu", "i"], ["en", "ough</w>"], ["K", "</w>"], ["p", "h"], ["O", "K</w>"], ["ju", "mp</w>"], ["st", "ick</w>"], ["t", "ru"], ["z", "y</w>"], ["f", "ar</w>"], ["w", "el"], ["J", "u"], ["b", "aby</w>"], ["p", "ink</w>"], ["stay", "ed</w>"], ["underst", "and</w>"], ["cooki", "es</w>"], ["w", "he"], ["f", "re"], ["t", "all</w>"], ["is", "ed</w>"], ["l", "a</w>"], ["p", "es</w>"], ["ro", "ss</w>"], ["am", "es</w>"], ["tr", "ying</w>"], ["whi", "te</w>"], ["ho", "t</w>"], ["la", "u"], ["lau", "gh</w>"], ["po", "in"], ["ing", "ing</w>"], ["as", "ks</w>"], ["fe", "w</w>"], ["ti", "e</w>"], ["per", "f"], ["la", "te</w>"], ["C", "ome</w>"], ["smil", "es</w>"], ["b", "or"], ["ma", "kes</w>"], ["be", "ach</w>"], ["scar", "y</w>"], ["gr", "andma</w>"], ["d", "r"], ["squir", "rel</w>"], ["si", "g"], ["the", "s</w>"], ["jo", "y</w>"], ["w", "et</w>"], ["clo", "thes</w>"], ["el", "d</w>"], ["en", "ce</w>"], ["hun", "g"], ["pic", "tures</w>"], ["s", "pl"], ["J", "ill</w>"], ["hung", "ry</w>"], ["fi", "x</w>"], ["some", "times</w>"], ["re", "st</w>"], ["ri", "es</w>"], ["he", "a"], ["tal", "k</w>"], ["for", "got</w>"], ["me", "ss</w>"], ["da", "ddy</w>"], ["climb", "ed</w>"], ["a", "ir</w>"], ["str", "ange</w>"], ["p", "il"], ["ama", "zing</w>"], ["b", "ri"], ["g", "on</w>"], ["o", "thers</w>"], ["a", "lon"], ["m", "et</w>"], ["se", "ar"], ["every", "thing</w>"], ["ha", "ir</w>"], ["w", "l</w>"], ["expl", "or"], ["din", "ner</w>"], ["alon", "e</w>"], ["cho", "o"], ["as", "ure</w>"], ["than", "k</w>"], ["list", "ened</w>"], ["c", "le</w>"], ["sm", "el"], ["h", "on"], ["ma", "l</w>"], ["O", "h</w>"], ["d", "ang"], ["S", "o"], ["a", "k</w>"], ["ri", "de</w>"], ["mom", "ent</w>"], ["s", "cre"], ["la", "ke</w>"], ["l", "ar</w>"], ["Da", "ddy</w>"], ["an", "c"], ["rou", "ght</w>"], ["b", "rought</w>"], ["mu", "s"], ["fo", "x</w>"], ["pu", "ppy</w>"], ["P", "e"], ["di", "sa"], ["a", "ge</w>"], ["to", "wards</w>"], ["ac", "es</w>"], ["u", "ght</w>"], ["M", "ary</w>"], ["our", "s</w>"], ["lea", "ve</w>"], ["as", "h"], ["ta", "il</w>"], ["h", "or"], ["woo", "ds</w>"], ["d", "uck</w>"], ["li", "e</w>"], ["mi", "ght</w>"], ["run", "s</w>"], ["ff", "y</w>"], ["A", "ll</w>"], ["I", "n</w>"], ["wai", "ted</w>"], ["So", "on</w>"], ["che", "s</w>"], ["f", "ra"], ["ce", "ss</w>"], ["t", "es</w>"], ["pp", "ing</w>"], ["bal", "lo"], ["p", "ur"], ["w", "on</w>"], ["wa", "sn</w>"], ["a", "ts</w>"], ["ra", "in"], ["M", "am"], ["b", "as"], ["pl", "an"], ["s", "illy</w>"], ["t", "\u00e2</w>"], ["ir", "y</w>"], ["s", "and</w>"], ["po", "li"], ["lu", "ffy</w>"], ["ama", "zed</w>"], ["perf", "ect</w>"], ["ta", "in</w>"], ["Mam", "a</w>"], ["z", "o"], ["sp", "ar"], ["ow", "ner</w>"], ["pu", "lled</w>"], ["L", "i"], ["fl", "ying</w>"], ["tur", "n</w>"], ["s", "k"], ["be", "lie"], ["ca", "l</w>"], ["dra", "w</w>"], ["w", "ee"], ["te", "ddy</w>"], ["v", "y</w>"], ["I", "n"], ["low", "ly</w>"], ["an", "sw"], ["gg", "er</w>"], ["thin", "ks</w>"], ["we", "ar</w>"], ["color", "ful</w>"], ["d", "ance</w>"], ["mor", "al</w>"], ["p", "et</w>"], ["c", "ut</w>"], ["do", "c"], ["g", "ro"], ["an", "g</w>"], ["m", "ent</w>"], ["k", "is"], ["h", "ide</w>"], ["r", "ace</w>"], ["bro", "ke</w>"], ["jo", "b</w>"], ["O", "kay</w>"], ["d", "eep</w>"], ["L", "e"], ["ic", "y</w>"], ["o", "ke</w>"], ["s", "and"], ["wor", "ried</w>"], ["d", "ry</w>"], ["bi", "gger</w>"], ["prom", "ised</w>"], ["bu", "g</w>"], ["f", "la"], ["par", "ty</w>"], ["gi", "cal</w>"], ["ma", "gical</w>"], ["fa", "ster</w>"], ["gra", "te"], ["pret", "end</w>"], ["th", "y</w>"], ["pi", "ec"], ["grate", "ful</w>"], ["piec", "es</w>"], ["s", "oun"], ["t", "rain</w>"], ["S", "ure</w>"], ["st", "ic"], ["b", "uc"], ["s", "lowly</w>"], ["li", "ving</w>"], ["shar", "ed</w>"], ["ri", "ver</w>"], ["b", "ack"], ["bo", "ard</w>"], ["every", "where</w>"], ["pa", "ti"], ["no", "w"], ["s", "na"], ["bl", "an"], ["t", "el"], ["s", "uch</w>"], ["y", "ear</w>"], ["s", "sed</w>"], ["dang", "erous</w>"], ["dir", "ty</w>"], ["br", "an"], ["Ju", "st</w>"], ["d", "ered</w>"], ["expl", "a"], ["uc", "ky</w>"], ["doc", "tor</w>"], ["jo", "in</w>"], ["s", "it</w>"], ["l", "un"], ["s", "on</w>"], ["w", "ou"], ["uc", "ks</w>"], ["le", "ase</w>"], ["i", "gh"], ["s", "wa"], ["mon", "ey</w>"], ["i", "ous</w>"], ["pp", "ear"], ["fi", "eld</w>"], ["h", "id"], ["re", "ach</w>"], ["car", "ro"], ["c", "our"], ["f", "arm"], ["sig", "n</w>"], ["tw", "ins</w>"], ["v", "ely</w>"], ["p", "han"], ["st", "ed</w>"], ["ti", "ght</w>"], ["u", "mb"], ["sm", "art</w>"], ["m", "ou"], ["vis", "it</w>"], ["hea", "vy</w>"], ["M", "um</w>"], ["g", "ed</w>"], ["a", "ter</w>"], ["win", "gs</w>"], ["H", "i</w>"], ["ac", "ti"], ["belie", "ve</w>"], ["tt", "ed</w>"], ["ac", "ross</w>"], ["cour", "se</w>"], ["ac", "e"], ["wor", "ds</w>"], ["chil", "d</w>"], ["u", "res</w>"], ["ppear", "ed</w>"], ["ap", "ple</w>"], ["hel", "ping</w>"], ["b", "er"], ["bi", "te</w>"], ["R", "o"], ["dra", "gon</w>"], ["Ji", "mmy</w>"], ["wou", "ldn</w>"], ["ele", "phan"], ["Em", "ma</w>"], ["p", "as"], ["sa", "me</w>"], ["rememb", "er</w>"], ["mon", "ster</w>"], ["swi", "m</w>"], ["th", "out</w>"], ["bi", "ke</w>"], ["i", "g"], ["thre", "w</w>"], ["spo", "t</w>"], ["hi", "g"], ["prin", "cess</w>"], ["choo", "l</w>"], ["ar", "ing</w>"], ["st", "uck</w>"], ["qui", "et</w>"], ["farm", "er</w>"], ["cla", "pped</w>"], ["s", "chool</w>"], ["sho", "es</w>"], ["star", "t</w>"], ["fu", "r"], ["s", "ong</w>"], ["su", "ddenly</w>"], ["pl", "ane</w>"], ["c", "ro"], ["com", "for"], ["dol", "ls</w>"], ["y", "st"], ["ea", "ting</w>"], ["ste", "pped</w>"], ["clo", "sed</w>"], ["mus", "ic</w>"], ["P", "lease</w>"], ["bo", "wl</w>"], ["tt", "en</w>"], ["e", "ce</w>"], ["cr", "ying</w>"], ["feel", "s</w>"], ["si", "ster</w>"], ["cra", "y"], ["can", "dy</w>"], ["er", "y</w>"], ["Gr", "andma</w>"], ["mu", "st</w>"], ["x", "ed</w>"], ["un", "i"], ["slee", "p</w>"], ["to", "wn</w>"], ["to", "day</w>"], ["wal", "l</w>"], ["f", "oo"], ["o", "ff"], ["co", "ver"], ["In", "side</w>"], ["pi", "ece</w>"], ["c", "id"], ["ho", "ped</w>"], ["u", "ally</w>"], ["m", "il"], ["is", "es</w>"], ["B", "e"], ["i", "e</w>"], ["st", "ra"], ["dro", "ve</w>"], ["to", "wer</w>"], ["wi", "thout</w>"], ["hig", "her</w>"], ["y", "oun"], ["ani", "mal</w>"], ["w", "ri"], ["ne", "ar"], ["vent", "ually</w>"], ["lun", "ch</w>"], ["bro", "wn</w>"], ["m", "ine</w>"], ["mou", "th</w>"], ["che", "ered</w>"], ["wel", "come</w>"], ["sw", "ings</w>"], ["c", "k"], ["l", "and</w>"], ["pu", "shed</w>"], ["a", "long</w>"], ["blan", "ket</w>"], ["mag", "ic</w>"], ["on", "es</w>"], ["mo", "ved</w>"], ["bl", "ack</w>"], ["ac", "cid"], ["tur", "ns</w>"], ["an", "k</w>"], ["t", "ly</w>"], ["The", "ir</w>"], ["ballo", "on</w>"], ["t", "rou"], ["thou", "gh</w>"], ["cha", "ir</w>"], ["b", "en"], ["pain", "t</w>"], ["gent", "le</w>"], ["tre", "asure</w>"], ["shin", "e</w>"], ["brea", "k</w>"], ["S", "am"], ["s", "inging</w>"], ["elephan", "t</w>"], ["ap", "pl"], ["d", "u"], ["che", "e"], ["hu", "gs</w>"], ["or", "t</w>"], ["pati", "ent</w>"], ["fa", "iry</w>"], ["l", "er</w>"], ["lon", "ger</w>"], ["s", "ou"], ["buil", "d</w>"], ["ph", "one</w>"], ["en", "ing</w>"], ["d", "le</w>"], ["expla", "ined</w>"], ["po", "cket</w>"], ["explor", "ing</w>"], ["up", "set</w>"], ["ste", "ad</w>"], ["ugh", "ter</w>"], ["g", "ames</w>"], ["re", "lie"], ["pret", "en"], ["see", "med</w>"], ["s", "ang</w>"], ["al", "thy</w>"], ["youn", "g</w>"], ["fi", "ght</w>"], ["near", "by</w>"], ["s", "now"], ["t", "or"], ["B", "u"], ["ba", "th"], ["sw", "ee"], ["Sam", "my</w>"], ["w", "ell</w>"], ["buc", "ket</w>"], ["com", "es</w>"], ["te", "ac"], ["no", "ises</w>"], ["sho", "ok</w>"], ["pur", "ple</w>"], ["se", "cre"], ["ir", "e</w>"], ["stor", "ies</w>"], ["be", "e</w>"], ["ne", "igh"], ["advent", "ures</w>"], ["for", "get</w>"], ["ro", "cks</w>"], ["sou", "p</w>"], ["back", "yard</w>"], ["enjo", "y</w>"], ["O", "n</w>"], ["lon", "ely</w>"], ["s", "er"], ["M", "y</w>"], ["s", "c"], ["a", "ke</w>"], ["ou", "ght</w>"], ["mon", "key</w>"], ["fi", "re"], ["da", "ughter</w>"], ["sha", "pes</w>"], ["ho", "ld</w>"], ["w", "oke</w>"], ["j", "our"], ["star", "s</w>"], ["F", "luffy</w>"], ["she", "s</w>"], ["se", "a</w>"], ["O", "f</w>"], ["le", "c"], ["fu", "sed</w>"], ["tin", "y</w>"], ["bb", "y</w>"], ["st", "ar</w>"], ["won", "dered</w>"], ["o", "t</w>"], ["ta", "king</w>"], ["wi", "sh</w>"], ["3", "</w>"], ["stre", "et</w>"], ["ca", "ught</w>"], ["wi", "se</w>"], ["na", "ugh"], ["di", "st"], ["ta", "kes</w>"], ["ju", "ice</w>"], ["naugh", "ty</w>"], ["rain", "bow</w>"], ["he", "art</w>"], ["h", "it</w>"], ["teac", "her</w>"], ["swa", "m</w>"], ["i", "on</w>"], ["E", "l"], ["sh", "ing</w>"], ["lo", "ves</w>"], ["ld", "ing</w>"], ["L", "ater</w>"], ["W", "i"], ["v", "al"], ["ki", "te</w>"], ["er", "ful</w>"], ["r", "ound</w>"], ["ace", "ful</w>"], ["S", "ome"], ["dri", "ver</w>"], ["ss", "y</w>"], ["relie", "ved</w>"], ["mm", "ing</w>"], ["t", "en</w>"], ["f", "all</w>"], ["ne", "y</w>"], ["shi", "p</w>"], ["na", "p</w>"], ["bu", "sy</w>"], ["hel", "lo</w>"], ["c", "ir"], ["war", "d</w>"], ["c", "lu"], ["ma", "d</w>"], ["r", "ing</w>"], ["f", "ence</w>"], ["cu", "te</w>"], ["or", "ange</w>"], ["soun", "ds</w>"], ["dro", "pped</w>"], ["no", "thing</w>"], ["ow", "l</w>"], ["l", "ar"], ["f", "it</w>"], ["exci", "ting</w>"], ["bas", "ket</w>"], ["ght", "ly</w>"], ["M", "r</w>"], ["j", "ar</w>"], ["da", "ys</w>"], ["k", "in"], ["H", "ow</w>"], ["c", "l"], ["bo", "dy</w>"], ["cover", "ed</w>"], ["hu", "ge</w>"], ["gg", "led</w>"], ["le", "ss</w>"], ["si", "tting</w>"], ["oun", "tain</w>"], ["pu", "ll</w>"], ["b", "ur"], ["for", "ever</w>"], ["m", "s</w>"], ["ben", "ch</w>"], ["stor", "m</w>"], ["re", "al</w>"], ["ta", "l</w>"], ["so", "l"], ["s", "ca"], ["co", "at</w>"], ["swi", "mming</w>"], ["secre", "t</w>"], ["s", "unny</w>"], ["dr", "ink</w>"], ["th", "day</w>"], ["s", "ki"], ["ca", "ve</w>"], ["c", "hi"], ["tt", "ens</w>"], ["ti", "ve</w>"], ["no", "se</w>"], ["fol", "low</w>"], ["on", "to</w>"], ["prom", "ise</w>"], ["ir", "s</w>"], ["arm", "s</w>"], ["e", "l</w>"], ["s", "now</w>"], ["H", "ey</w>"], ["fra", "id</w>"], ["tou", "ched</w>"], ["a", "fraid</w>"], ["e", "ss</w>"], ["e", "p</w>"], ["pu", "dd"], ["b", "oun"], ["bran", "ch</w>"], ["K", "i"], ["ne", "st</w>"], ["in", "ter"], ["f", "arm</w>"], ["J", "enny</w>"], ["n", "or"], ["gi", "ves</w>"], ["sa", "il"], ["j", "e"], ["a", "tt"], ["A", "n"], ["accid", "ent"], ["s", "ick</w>"], ["dre", "am</w>"], ["an", "dy</w>"], ["k", "ne"], ["exci", "te"], ["br", "ing</w>"], ["laugh", "ing</w>"], ["h", "ar"], ["po", "w"], ["appl", "es</w>"], ["gi", "ft</w>"], ["ho", "lding</w>"], ["bir", "thday</w>"], ["accident", "ally</w>"], ["d", "ucks</w>"], ["b", "ru"], ["b", "le"], ["J", "en</w>"], ["a", "tion</w>"], ["in", "stead</w>"], ["ac", "ed</w>"], ["bo", "ttle</w>"], ["m", "ach"], ["co", "zy</w>"], ["Wi", "th</w>"], ["butt", "on</w>"], ["g", "row</w>"], ["w", "ra"], ["ro", "pe</w>"], ["sear", "ched</w>"], ["t", "ent</w>"], ["chee", "se</w>"], ["la", "ter</w>"], ["wor", "d</w>"], ["j", "un"], ["fa", "ir</w>"], ["l", "t</w>"], ["li", "fe</w>"], ["si", "e</w>"], ["inter", "est"], ["poin", "ted</w>"], ["w", "om"], ["pu", "ts</w>"], ["sand", "wi"], ["wat", "ching</w>"], ["wom", "an</w>"], ["par", "t</w>"], ["i", "mag"], ["su", "g"], ["b", "ought</w>"], ["pic", "n"], ["si", "ve</w>"], ["pl", "an</w>"], ["a", "t"], ["any", "one</w>"], ["ro", "ad</w>"], ["bu", "sh</w>"], ["wi", "de</w>"], ["li", "ve</w>"], ["i", "t"], ["tre", "at</w>"], ["ac", "ked</w>"], ["shel", "f</w>"], ["p", "a</w>"], ["ad", "m"], ["shar", "p</w>"], ["c", "lou"], ["e", "as"], ["tal", "ked</w>"], ["il", "la"], ["he", "s</w>"], ["comfor", "table</w>"], ["W", "here</w>"], ["spar", "k"], ["T", "wee"], ["per", "son</w>"], ["v", "illa"], ["qu", "est"], ["A", "re</w>"], ["k", "ee"], ["b", "read</w>"], ["col", "lec"], ["pro", "ble"], ["ac", "ks</w>"], ["picn", "ic</w>"], ["an", "ced</w>"], ["neigh", "b"], ["spo", "tted</w>"], ["and", "pa</w>"], ["l", "ucky</w>"], ["shin", "ing</w>"], ["m", "yst"], ["f", "al"], ["lo", "ck</w>"], ["p", "y</w>"], ["snow", "man</w>"], ["clou", "ds</w>"]]}